TRT-100700-EntropyCalibration2
images: 3b66eddc
/model.0/conv/Conv_output_0: 3de8bd4c
/model.0/act/Sigmoid_output_0: 3c010a14
/model.0/act/Mul_output_0: 3e7cef72
/model.1/conv/Conv_output_0: 3f17204a
/model.1/act/Sigmoid_output_0: 3c010a14
/model.1/act/Mul_output_0: 3e926564
/model.2/cv1/conv/Conv_output_0: 3ed262da
/model.2/cv1/act/Sigmoid_output_0: 3c010a14
/model.2/cv1/act/Mul_output_0: 3e1092d5
/model.23/Reshape_2_output_0: 3e1f0350
/model.23/cv3.1/cv3.1.1/cv3.1.1.1/act/Mul_output_0: 3d26f6d4
/model.23/cv3.1/cv3.1.1/cv3.1.1.0/act/Mul_output_0: 3d2426a6
/model.23/cv2.2/cv2.2.0/act/Mul_output_0: 3d22e296
/model.22/cv1/act/Mul_output_0: 3ce881dc
ONNXTRT_ShapeShuffle_307_output: 3c010a14
/model.2/Split_output_0: 3dd96353
/model.23/cv3.1/cv3.1.0/cv3.1.0.1/act/Sigmoid_output_0: 3bff1635
/model.23/cv3.2/cv3.2.1/cv3.2.1.0/act/Mul_output_0: 3d405022
/model.23/Expand_5_output_0: 3e1d4449
/model.2/Split_output_1: 3e8f979f
/model.2/m.0/cv1/conv/Conv_output_0: 3d8066b4
/model.2/m.0/cv1/act/Sigmoid_output_0: 3bebf2b6
/model.2/m.0/cv1/act/Mul_output_0: 3c363f66
/model.2/m.0/cv2/conv/Conv_output_0: 3e19812a
/model.2/m.0/cv2/act/Sigmoid_output_0: 3c010a14
/model.2/m.0/cv2/act/Mul_output_0: 3e10dc82
/model.2/m.0/Add_output_0: 3e8eb0e3
/model.2/Concat_output_0: 3e8e73fb
/model.2/cv2/conv/Conv_output_0: 3e950c97
/model.2/cv2/act/Sigmoid_output_0: 3c010a14
/model.2/cv2/act/Mul_output_0: 3d92337b
/model.3/conv/Conv_output_0: 3d5ba6eb
/model.3/act/Sigmoid_output_0: 3c006b4f
/model.3/act/Mul_output_0: 3d43785d
/model.4/cv1/conv/Conv_output_0: 3d139c25
/model.4/cv1/act/Sigmoid_output_0: 3c0022d6
/model.4/cv1/act/Mul_output_0: 3d0fb205
/model.23/Sub_1_output_0: 3e64d77c
/model.23/Concat_23_output_0: 3e810a14
ONNXTRT_ShapeShuffle_297_output: 3c010a14
/model.23/dfl/Softmax_output_0: 3bdac502
/model.23/Unsqueeze_10_output_0: 3e1d4449
/model.23/cv2.2/cv2.2.1/act/Mul_output_0: 3dc5a46d
/model.4/Split_output_0: 3d246aaa
/model.23/cv3.1/cv3.1.1/cv3.1.1.0/conv/Conv_output_0: 3d710c54
/model.23/Sigmoid_output_0: 3958a670
/model.23/Reshape_15_output_0: 3e1d4449
/model.4/Split_output_1: 3ca3c94d
/model.4/m.0/cv1/conv/Conv_output_0: 3cc42608
/model.4/m.0/cv1/act/Sigmoid_output_0: 3befb3a0
/model.4/m.0/cv1/act/Mul_output_0: 3c86ec5a
/model.4/m.0/cv2/conv/Conv_output_0: 3d2ebf3e
/model.4/m.0/cv2/act/Sigmoid_output_0: 3c046228
/model.4/m.0/cv2/act/Mul_output_0: 3d245762
/model.4/m.0/Add_output_0: 3d39f58c
/model.4/Concat_output_0: 3d217a38
/model.4/cv2/conv/Conv_output_0: 3daabcec
/model.4/cv2/act/Sigmoid_output_0: 3bffbf8c
/model.4/cv2/act/Mul_output_0: 3c803b19
/model.5/conv/Conv_output_0: 3d440ba0
/model.5/act/Sigmoid_output_0: 3bfefe1b
/model.5/act/Mul_output_0: 3ce6cd0c
/model.6/cv1/conv/Conv_output_0: 3dfcc938
/model.6/cv1/act/Sigmoid_output_0: 3c0091ff
/model.6/cv1/act/Mul_output_0: 3d1051b7
/model.22/cv2/conv/Conv_output_0: 3d8101bc
/model.22/Concat_output_0: 3ce881dc
/model.22/cv2/act/Sigmoid_output_0: 3c00debb
/model.22/m.0/cv3/act/Mul_output_0: 3ce676c2
/model.22/cv2/act/Mul_output_0: 3cd2e2c3
/model.22/m.0/cv3/act/Sigmoid_output_0: 3c00b6c6
/model.6/Split_output_0: 3d24e38a
/model.22/m.0/Concat_output_0: 3d41c859
/model.23/Concat_15_output_0: 3e9f4871
/model.22/m.0/cv3/conv/Conv_output_0: 3dc18512
/model.6/Split_output_1: 3ce66cb0
/model.6/m.0/cv1/conv/Conv_output_0: 3cd37e03
/model.6/m.0/cv2/conv/Conv_output_0: 3d886e61
/model.6/m.0/cv1/act/Sigmoid_output_0: 3c003ee6
/model.6/m.0/cv2/act/Sigmoid_output_0: 3c005402
/model.6/m.0/cv1/act/Mul_output_0: 3c726cac
/model.6/m.0/cv2/act/Mul_output_0: 3ce7732c
/model.6/m.0/m/m.0/cv1/conv/Conv_output_0: 3d251322
/model.6/m.0/m/m.0/cv1/act/Sigmoid_output_0: 3c0065d6
/model.6/m.0/m/m.0/cv1/act/Mul_output_0: 3c527052
/model.6/m.0/m/m.0/cv2/conv/Conv_output_0: 3d46b017
/model.6/m.0/m/m.0/cv2/act/Sigmoid_output_0: 3c047060
/model.6/m.0/m/m.0/cv2/act/Mul_output_0: 3cd13332
/model.6/m.0/m/m.0/Add_output_0: 3d8f7f95
/model.6/m.0/m/m.1/cv1/conv/Conv_output_0: 3d06a601
/model.6/m.0/m/m.1/cv1/act/Sigmoid_output_0: 3bfb577a
/model.6/m.0/m/m.1/cv1/act/Mul_output_0: 3c37bad7
/model.6/m.0/m/m.1/cv2/conv/Conv_output_0: 3d50ee4d
/model.6/m.0/m/m.1/cv2/act/Sigmoid_output_0: 3c0096e8
/model.6/m.0/m/m.1/cv2/act/Mul_output_0: 3d3f4c39
/model.6/m.0/m/m.1/Add_output_0: 3dcb601a
/model.6/m.0/Concat_output_0: 3d698747
/model.6/m.0/cv3/conv/Conv_output_0: 3d8a06ea
/model.6/m.0/cv3/act/Sigmoid_output_0: 3c04ab6b
/model.6/m.0/cv3/act/Mul_output_0: 3cc276f8
/model.6/Concat_output_0: 3d0053f6
/model.6/cv2/conv/Conv_output_0: 3da009d7
/model.6/cv2/act/Sigmoid_output_0: 3c00bbfd
/model.6/cv2/act/Mul_output_0: 3cc1a90a
/model.7/conv/Conv_output_0: 3d76dae9
/model.7/act/Sigmoid_output_0: 3bff680a
/model.7/act/Mul_output_0: 3cd273c2
/model.8/cv1/conv/Conv_output_0: 3d991cf5
/model.8/cv1/act/Sigmoid_output_0: 3c02072e
/model.8/cv1/act/Mul_output_0: 3d27320a
/model.23/Mul_5_output_0: 40a08b27
/model.23/cv3.2/cv3.2.1/cv3.2.1.0/conv/Conv_output_0: 3d738a70
/model.23/cv3.2/cv3.2.1/cv3.2.1.0/act/Sigmoid_output_0: 3c08999e
/model.22/m.0/m/m.1/Add_output_0: 3d833cbb
/model.23/Reshape_12_output_0: 3e9f4871
/model.22/m.0/m/m.1/cv2/act/Mul_output_0: 3d414548
/model.8/Split_output_0: 3d42a0fe
/model.23/Unsqueeze_7_output_0: 3e9f4871
/model.23/Unsqueeze_6_output_0: 3e9f4871
/model.23/Unsqueeze_9_output_0: 3e1d4449
/model.8/Split_output_1: 3ce81221
/model.8/m.0/cv1/conv/Conv_output_0: 3d588007
/model.8/m.0/cv2/conv/Conv_output_0: 3d8964b4
/model.8/m.0/cv1/act/Sigmoid_output_0: 3bfb542e
/model.8/m.0/cv2/act/Sigmoid_output_0: 3c02797c
/model.8/m.0/cv1/act/Mul_output_0: 3c99ed03
/model.8/m.0/cv2/act/Mul_output_0: 3d272454
/model.8/m.0/m/m.0/cv1/conv/Conv_output_0: 3d45c557
/model.8/m.0/m/m.0/cv1/act/Sigmoid_output_0: 3c02f93d
/model.8/m.0/m/m.0/cv1/act/Mul_output_0: 3cc13e10
/model.8/m.0/m/m.0/cv2/conv/Conv_output_0: 3d6a172f
/model.8/m.0/m/m.0/cv2/act/Sigmoid_output_0: 3c00ad96
/model.8/m.0/m/m.0/cv2/act/Mul_output_0: 3ce5771e
/model.8/m.0/m/m.0/Add_output_0: 3d2fb92e
/model.8/m.0/m/m.1/cv1/conv/Conv_output_0: 3d338855
/model.8/m.0/m/m.1/cv1/act/Sigmoid_output_0: 3c062108
/model.8/m.0/m/m.1/cv1/act/Mul_output_0: 3cb19741
/model.8/m.0/m/m.1/cv2/conv/Conv_output_0: 3d81fa03
/model.8/m.0/m/m.1/cv2/act/Sigmoid_output_0: 3c08723a
/model.8/m.0/m/m.1/cv2/act/Mul_output_0: 3d667f0c
/model.8/m.0/m/m.1/Add_output_0: 3da7800e
/model.8/m.0/Concat_output_0: 3d661297
/model.8/m.0/cv3/conv/Conv_output_0: 3d2c2c13
/model.8/m.0/cv3/act/Sigmoid_output_0: 3c008d31
/model.8/m.0/cv3/act/Mul_output_0: 3ce7ca3a
/model.8/Concat_output_0: 3d126f60
/model.8/cv2/conv/Conv_output_0: 3d9d690e
/model.8/cv2/act/Sigmoid_output_0: 3c0107b6
/model.8/cv2/act/Mul_output_0: 3d23b1fc
/model.9/cv1/conv/Conv_output_0: 3d80d0c2
/model.9/cv1/act/Sigmoid_output_0: 3c00dea4
/model.9/cv1/act/Mul_output_0: 3d6a0a96
/model.9/m/MaxPool_output_0: 3d6a0a96
/model.9/m_1/MaxPool_output_0: 3d6a0a96
/model.9/m_2/MaxPool_output_0: 3d6a0a96
/model.9/Concat_output_0: 3d7f9b03
/model.9/cv2/conv/Conv_output_0: 3db1762e
/model.9/cv2/act/Sigmoid_output_0: 3c0093b6
/model.9/cv2/act/Mul_output_0: 3cd17cfe
/model.10/cv1/conv/Conv_output_0: 3e1347be
/model.10/cv1/act/Sigmoid_output_0: 3c011211
/model.10/cv1/act/Mul_output_0: 3d9026bb
/model.23/Sub_output_0: 3f1fbf32
/model.23/cv3.2/cv3.2.0/cv3.2.0.1/act/Sigmoid_output_0: 3c0552ca
ONNXTRT_Broadcast_426_output: 3e810a14
/model.23/Transpose_output_0: 3f204a85
/model.23/cv3.2/cv3.2.1/cv3.2.1.1/conv/Conv_output_0: 3d291554
/model.22/m.0/cv2/conv/Conv_output_0: 3d451196
/model.10/Split_output_0: 3d8fff64
(Unnamed Layer* 626) [Constant]_output: 0
/model.23/cv2.2/cv2.2.0/act/Sigmoid_output_0: 3c030a86
/model.23/Reshape_17_output_0: 3e1d4449
/model.10/Split_output_1: 3d684a13
/model.23/ConstantOfShape_2_output_0: 0
/model.23/Concat_10_output_0: 3f204a85
/model.10/m/m.0/attn/qkv/conv/Conv_output_0: 3dc02448
ONNXTRT_ShapeShuffle_314_output: 0
/model.22/m.0/cv1/act/Mul_output_0: 3c3fe6e4
/model.23/Transpose_1_output_0: 3e810a14
/model.23/ConstantOfShape_1_output_0: 0
ONNXTRT_ShapeShuffle_239_output: 0
(Unnamed Layer* 504) [Constant]_output: 0
/model.22/m.0/m/m.1/cv1/act/Sigmoid_output_0: 3bfacd66
/model.22/m.0/m/m.1/cv1/act/Mul_output_0: 3c7375c6
ONNXTRT_Broadcast_419_output: 3c810a14
/model.23/dfl/Reshape_output_0: 3e1899db
/model.23/cv3.2/cv3.2.1/cv3.2.1.1/act/Mul_output_0: 3d10e05e
/model.22/m.0/m/m.1/cv2/act/Sigmoid_output_0: 3c00e0f4
/model.23/cv3.2/cv3.2.0/cv3.2.0.1/conv/Conv_output_0: 3d3798bd
/model.23/Reshape_11_output_0: 3e9f4871
/model.23/Reshape_10_output_0: 3e9f4871
/model.23/cv3.1/cv3.1.0/cv3.1.0.1/conv/Conv_output_0: 3d2a36c6
/model.10/m/m.0/attn/Reshape_output_0: 3dc02448
/model.23/Add_3_output_0: 3e9f4871
ONNXTRT_Broadcast_234_output: 3b810a14
ONNXTRT_Broadcast_236_output: 3b810a14
/model.22/m.0/m/m.1/cv1/conv/Conv_output_0: 3d363ab3
/model.23/Add_4_output_0: 3e9f4871
/model.23/Unsqueeze_4_output_0: 3f204a85
/model.10/m/m.0/attn/Split_output_0: 3d880a48
ONNXTRT_ShapeShuffle_232_output: 3c010a14
/model.23/cv3.1/cv3.1.2/Conv_output_0: 3e401fc4
/model.23/Range_3_output_0: 3e9d4449
/model.10/m/m.0/attn/Split_output_1: 3ddfb9f9
/model.22/m.0/m/m.0/cv1/conv/Conv_output_0: 3d97ebab
/model.23/cv3.2/cv3.2.0/cv3.2.0.0/act/Mul_output_0: 3d8c7fd6
/model.23/cv2.1/cv2.1.1/conv/Conv_output_0: 3e50ec8d
/model.10/m/m.0/attn/Split_output_2: 3dbe9d83
/model.10/m/m.0/attn/Transpose_output_0: 3d880a48
/model.10/m/m.0/attn/Reshape_2_output_0: 3dbe9d83
/model.10/m/m.0/attn/MatMul_output_0: 400ed7af
/model.10/m/m.0/attn/pe/conv/Conv_output_0: 3d855958
/model.10/m/m.0/attn/Constant_6_output_0_output: 3ab67d3d
ONNXTRT_Broadcast_output: 3ab67d3d
/model.10/m/m.0/attn/Mul_1_output_0: 3eca0284
/model.10/m/m.0/attn/Softmax_output: 3a877ee7
/model.10/m/m.0/attn/Softmax_output_0: 3a877ee7
/model.23/Add_5_output_0: 3e010a14
ONNXTRT_Broadcast_309_output: 3b810a14
/model.10/m/m.0/attn/Transpose_1_output_0: 3a877ee7
/model.10/m/m.0/attn/MatMul_1_output_0: 3de206db
/model.10/m/m.0/attn/Reshape_1_output_0: 3de206db
/model.10/m/m.0/attn/Add_output_0: 3dbe13f5
/model.10/m/m.0/attn/proj/conv/Conv_output_0: 3d8a0bd3
/model.10/m/m.0/Add_output_0: 3deaf7d2
/model.10/m/m.0/ffn/ffn.0/conv/Conv_output_0: 3d8c81ff
/model.10/m/m.0/ffn/ffn.0/act/Sigmoid_output_0: 3c013a0e
/model.10/m/m.0/ffn/ffn.0/act/Mul_output_0: 3cff8177
/model.10/m/m.0/ffn/ffn.1/conv/Conv_output_0: 3d94b315
/model.10/m/m.0/Add_1_output_0: 3dee73d8
/model.10/Concat_output_0: 3dc04ddf
/model.10/cv2/conv/Conv_output_0: 3e140a94
/model.10/cv2/act/Sigmoid_output_0: 3c07201c
/model.10/cv2/act/Mul_output_0: 3c748549
/model.11/Resize_output_0: 3c748549
/model.12/Concat_output_0: 3cb1c6de
/model.13/cv1/conv/Conv_output_0: 3d70d968
/model.13/cv1/act/Sigmoid_output_0: 3bfd23fb
/model.13/cv1/act/Mul_output_0: 3caffe5c
/model.23/Expand_1_output_0: 3f204a85
/model.23/cv3.2/cv3.2.0/cv3.2.0.1/act/Mul_output_0: 3d10c6b8
/model.22/m.0/m/m.0/cv1/act/Mul_output_0: 3ca58f39
/model.21/Concat_output_0: 3ca5fc74
/model.23/cv3.2/cv3.2.2/Conv_output_0: 3e462c64
ONNXTRT_ShapeShuffle_222_output: 3c010a14
/model.13/Split_output_0: 3cd0ac3a
/model.23/cv3.2/cv3.2.1/cv3.2.1.1/act/Sigmoid_output_0: 3c05975a
/model.23/Add_6_output_0: 3e1d4449
/model.23/Split_1_output_1: 3e6687ca
/model.13/Split_output_1: 3c51af26
/model.13/m.0/cv1/conv/Conv_output_0: 3d054bc2
/model.13/m.0/cv1/act/Sigmoid_output_0: 3bee0c90
/model.13/m.0/cv1/act/Mul_output_0: 3c65f78e
/model.13/m.0/cv2/conv/Conv_output_0: 3d2402a7
/model.13/m.0/cv2/act/Sigmoid_output_0: 3bfe4199
/model.13/m.0/cv2/act/Mul_output_0: 3cd13547
/model.13/m.0/Add_output_0: 3cf1fa50
/model.13/Concat_output_0: 3cd146b7
/model.13/cv2/conv/Conv_output_0: 3d29fc8b
/model.13/cv2/act/Sigmoid_output_0: 3bfd9067
/model.13/cv2/act/Mul_output_0: 3c519dd3
/model.14/Resize_output_0: 3c519dd3
/model.15/Concat_output_0: 3c803b19
/model.16/cv1/conv/Conv_output_0: 3d49f56a
/model.16/cv1/act/Sigmoid_output_0: 3bf46244
/model.16/cv1/act/Mul_output_0: 3c9976b7
/model.23/Range_2_output_0: 3e9d4449
output0: 40a08b27
ONNXTRT_Broadcast_311_output: 3b810a14
/model.22/m.0/m/m.0/cv2/act/Mul_output_0: 3cd18e50
/model.22/m.0/m/m.0/Add_output_0: 3d239f61
/model.22/m.0/m/m.0/cv1/act/Sigmoid_output_0: 3bfdbafe
/model.16/Split_output_0: 3ca44162
/model.23/Reshape_1_output_0: 3e5f5449
/model.22/m.0/m/m.0/cv2/act/Sigmoid_output_0: 3c00fa32
/model.22/m.0/m/m.0/cv2/conv/Conv_output_0: 3d468be5
/model.16/Split_output_1: 3c8776ad
/model.16/m.0/cv1/conv/Conv_output_0: 3d1af79a
/model.16/m.0/cv1/act/Sigmoid_output_0: 3bfe5af3
/model.16/m.0/cv1/act/Mul_output_0: 3cc02962
/model.16/m.0/cv2/conv/Conv_output_0: 3d5a0cf1
/model.16/m.0/cv2/act/Sigmoid_output_0: 3bfed3aa
/model.16/m.0/cv2/act/Mul_output_0: 3cd2565b
/model.16/m.0/Add_output_0: 3d3031dd
/model.16/Concat_output_0: 3cbfc0c1
/model.16/cv2/conv/Conv_output_0: 3d4098b0
/model.16/cv2/act/Sigmoid_output_0: 3c02476d
/model.16/cv2/act/Mul_output_0: 3cb18b00
/model.17/conv/Conv_output_0: 3d3898d7
/model.23/cv2.0/cv2.0.0/conv/Conv_output_0: 3d6b9f3e
/model.23/cv3.0/cv3.0.0/cv3.0.0.0/conv/Conv_output_0: 3d8426ab
/model.17/act/Sigmoid_output_0: 3c00c61c
/model.23/cv2.0/cv2.0.0/act/Sigmoid_output_0: 3bfe744b
/model.23/cv3.0/cv3.0.0/cv3.0.0.0/act/Sigmoid_output_0: 3bff08b4
/model.17/act/Mul_output_0: 3c90b5fb
/model.23/cv2.0/cv2.0.0/act/Mul_output_0: 3c72d551
/model.23/cv3.0/cv3.0.0/cv3.0.0.0/act/Mul_output_0: 3d10926d
/model.18/Concat_output_0: 3c738cb5
/model.23/cv2.0/cv2.0.1/conv/Conv_output_0: 3e1f794f
/model.23/cv3.0/cv3.0.0/cv3.0.0.1/conv/Conv_output_0: 3d1fa12c
/model.19/cv1/conv/Conv_output_0: 3d301372
/model.23/cv2.0/cv2.0.1/act/Sigmoid_output_0: 3c010a14
/model.23/cv3.0/cv3.0.0/cv3.0.0.1/act/Sigmoid_output_0: 3c002067
/model.19/cv1/act/Sigmoid_output_0: 3c00c77f
/model.23/cv2.0/cv2.0.1/act/Mul_output_0: 3dc01c13
/model.23/cv3.0/cv3.0.0/cv3.0.0.1/act/Mul_output_0: 3d0002c5
/model.19/cv1/act/Mul_output_0: 3ca5dfb2
/model.23/cv2.0/cv2.0.2/Conv_output_0: 3e18f9ad
/model.23/cv3.0/cv3.0.1/cv3.0.1.0/conv/Conv_output_0: 3d91ee28
/model.22/m.0/cv1/act/Sigmoid_output_0: 3bf85443
/model.23/cv2.2/cv2.2.2/Conv_output_0: 3de8edf6
/model.23/cv3.1/cv3.1.1/cv3.1.1.1/act/Sigmoid_output_0: 3c06d8c8
/model.22/m.0/cv1/conv/Conv_output_0: 3cedc012
/model.23/Expand_2_output_0: 3e9f4871
/model.23/Reshape_7_output_0: 3f204a85
/model.19/Split_output_0: 3cd31efa
/model.23/cv2.2/cv2.2.1/act/Sigmoid_output_0: 3c01121e
/model.23/Concat_22_output_0: 3f204a85
ONNXTRT_Broadcast_244_output: 3e010a14
/model.19/Split_output_1: 3c73abb4
/model.23/cv3.0/cv3.0.1/cv3.0.1.0/act/Sigmoid_output_0: 3c00d69a
/model.19/m.0/cv1/conv/Conv_output_0: 3d2e605f
/model.23/cv3.0/cv3.0.1/cv3.0.1.0/act/Mul_output_0: 3d402b8c
/model.19/m.0/cv1/act/Sigmoid_output_0: 3c053c2a
/model.23/cv3.0/cv3.0.1/cv3.0.1.1/conv/Conv_output_0: 3d5295bd
/model.19/m.0/cv1/act/Mul_output_0: 3cb2d616
/model.23/cv3.0/cv3.0.1/cv3.0.1.1/act/Sigmoid_output_0: 3c008dca
/model.19/m.0/cv2/conv/Conv_output_0: 3d7f509e
/model.23/cv3.0/cv3.0.1/cv3.0.1.1/act/Mul_output_0: 3d11ac8b
/model.19/m.0/cv2/act/Sigmoid_output_0: 3bfffdef
/model.23/cv3.0/cv3.0.2/Conv_output_0: 3e330d75
/model.19/m.0/cv2/act/Mul_output_0: 3d003652
/model.23/Concat_output_0: 3e2221b3
/model.19/m.0/Add_output_0: 3d51bc06
/model.22/m.0/cv2/act/Mul_output_0: 3cb0e32f
/model.22/Split_output_1: 3ce881dc
/model.19/Concat_output_0: 3d010353
/model.23/cv2.1/cv2.1.1/act/Mul_output_0: 3e16a07a
/model.23/Add_11_output_0: 3fa08b27
/model.23/Unsqueeze_12_output_0: 3f204a85
/model.19/cv2/conv/Conv_output_0: 3d4e9d63
/model.23/Reshape_16_output_0: 3e1d4449
/model.23/dfl/Transpose_output_0: 3e1899db
/model.23/Concat_20_output_0: 3e1d4449
/model.23/cv3.2/cv3.2.0/cv3.2.0.0/conv/Conv_output_0: 3d9515e5
/model.19/cv2/act/Sigmoid_output_0: 3bfe00ba
/model.23/Add_7_output_0: 3e1d4449
/model.22/m.0/m/m.1/cv2/conv/Conv_output_0: 3d84b1d8
/model.22/cv1/conv/Conv_output_0: 3d725e02
/model.23/Constant_14_output_0_output: 0
/model.23/Constant_15_output_0_output: 3c010a14
/model.23/cv3.1/cv3.1.1/cv3.1.1.0/act/Sigmoid_output_0: 3c00bfb9
/model.23/Add_8_output_0: 3e810a14
ONNXTRT_Broadcast_319_output: 3e810a14
/model.22/Split_output_0: 3cd11a87
/model.23/Constant_67_output_0_output: 3c810a14
/model.23/Unsqueeze_3_output_0: 3f204a85
/model.22/m.0/cv2/act/Sigmoid_output_0: 3bff4424
/model.23/Range_output_0: 3f1f4871
ONNXTRT_ShapeShuffle_146_output: 3c010a14
/model.23/Concat_1_output_0: 3e5f5449
/model.23/dfl/Softmax_output: 3bdac502
/model.23/dfl/conv/Conv_output_0: 3de55a3d
/model.23/Expand_4_output_0: 3e1d4449
/model.23/cv3.1/cv3.1.1/cv3.1.1.1/conv/Conv_output_0: 3d572d30
/model.23/Concat_2_output_0: 3e1f0350
/model.22/cv1/act/Sigmoid_output_0: 3c00e210
/model.23/Range_1_output_0: 3f1f4871
ONNXTRT_ShapeShuffle_156_output: 3c010a14
/model.23/Add_10_output_0: 3f21d013
/model.19/cv2/act/Mul_output_0: 3cc04b1a
/model.23/Reshape_output_0: 3e2221b3
/model.23/Constant_16_output_0_output: 3b810a14
ONNXTRT_Broadcast_159_output: 3b810a14
/model.23/Add_output_0: 3f204a85
ONNXTRT_Broadcast_161_output: 3b810a14
/model.23/Add_1_output_0: 3f204a85
/model.23/Range_5_output_0: 3e193bf8
/model.23/cv3.1/cv3.1.0/cv3.1.0.1/act/Mul_output_0: 3cd0bcfe
/model.20/conv/Conv_output_0: 3d5cc174
/model.23/cv2.1/cv2.1.0/conv/Conv_output_0: 3dadd229
/model.23/cv3.1/cv3.1.0/cv3.1.0.0/conv/Conv_output_0: 3d920960
(Unnamed Layer* 382) [Constant]_output: 0
ONNXTRT_ShapeShuffle_164_output: 0
/model.23/ConstantOfShape_output_0: 0
/model.23/cv2.1/cv2.1.1/act/Sigmoid_output_0: 3c010a14
/model.23/dfl/Reshape_1_output_0: 3de55a3d
/model.23/Squeeze_1_output_0_output: 3e010a14
/model.23/cv2.1/cv2.1.2/Conv_output_0: 3e1b02be
/model.23/Reshape_5_output_0: 3f204a85
/model.23/Reshape_6_output_0: 3f204a85
/model.20/act/Sigmoid_output_0: 3c00c369
/model.23/cv2.1/cv2.1.0/act/Sigmoid_output_0: 3c00ad1c
/model.23/cv3.1/cv3.1.0/cv3.1.0.0/act/Sigmoid_output_0: 3c031228
/model.23/Squeeze_output_0_output: 3d810a14
ONNXTRT_Broadcast_169_output: 3d810a14
/model.23/Add_2_output_0: 3d810a14
/model.23/cv2.2/cv2.2.1/conv/Conv_output_0: 3e177f01
/model.20/act/Mul_output_0: 3ce8269f
/model.23/cv2.1/cv2.1.0/act/Mul_output_0: 3d0fc8e6
/model.23/cv3.1/cv3.1.0/cv3.1.0.0/act/Mul_output_0: 3d690686
/model.23/Expand_3_output_0: 3e9f4871
/model.23/Div_1_output_0: 3f208b27
/model.23/Split_1_output_0: 3e1899db
/model.23/Squeeze_2_output_0_output: 3e810a14
/model.23/Slice_1_output_0: 3de42b83
/model.23/Slice_output_0: 3dd5743f
/model.23/cv3.2/cv3.2.0/cv3.2.0.0/act/Sigmoid_output_0: 3c099fd1
/model.23/Concat_6_output_0: 3e39d89b
/model.23/cv2.2/cv2.2.0/conv/Conv_output_0: 3d8485fd
/model.23/Concat_24_output_0: 3f208b27
/model.23/Expand_output_0: 3f204a85
/model.23/Range_4_output_0: 3e193bf8
