TRT-100700-EntropyCalibration2
images: 3b66eddc
/model.0/conv/Conv_output_0: 3e956b13
/model.0/act/Sigmoid_output_0: 3c010a14
/model.0/act/Mul_output_0: 3e99ccaa
/model.1/conv/Conv_output_0: 3f2723a2
/model.1/act/Sigmoid_output_0: 3c010a14
/model.1/act/Mul_output_0: 3e867f3c
/model.2/cv1/conv/Conv_output_0: 3e7640c3
/model.2/cv1/act/Sigmoid_output_0: 3c010a14
/model.2/cv1/act/Mul_output_0: 3d9857ef
/model.23/cv3.2/cv3.2.1/cv3.2.1.0/conv/Conv_output_0: 3d47dc95
ONNXTRT_Broadcast_323_output: 3e810a14
/model.23/cv3.2/cv3.2.0/cv3.2.0.0/conv/Conv_output_0: 3d911d9b
/model.23/Expand_1_output_0: 3f204a85
/model.23/Mul_5_output_0: 40a53a5a
/model.23/Split_1_output_1: 3e384e1a
/model.2/Split_output_0: 3d93960c
/model.22/m.0/m/m.1/cv1/act/Mul_output_0: 3c679c3c
/model.23/cv4.2/cv4.2.0/conv/Conv_output_0: 3d007b4c
/model.23/dfl/Reshape_output_0: 3e05d7a1
/model.2/Split_output_1: 3dbea727
/model.2/m.0/cv1/conv/Conv_output_0: 3d0cc86b
/model.2/m.0/cv1/act/Sigmoid_output_0: 3be6242c
/model.2/m.0/cv1/act/Mul_output_0: 3c5b097b
/model.2/m.0/cv2/conv/Conv_output_0: 3dd2ce5d
/model.2/m.0/cv2/act/Sigmoid_output_0: 3c010a14
/model.2/m.0/cv2/act/Mul_output_0: 3d8fe8d2
/model.2/m.0/Add_output_0: 3dbe1c78
/model.2/Concat_output_0: 3dbf7bca
/model.2/cv2/conv/Conv_output_0: 3e5c4c91
/model.2/cv2/act/Sigmoid_output_0: 3c00e9d4
/model.2/cv2/act/Mul_output_0: 3d6d806d
/model.3/conv/Conv_output_0: 3d20e5b7
/model.3/act/Sigmoid_output_0: 3c0068be
/model.3/act/Mul_output_0: 3d0f6520
/model.4/cv1/conv/Conv_output_0: 3d162b82
/model.4/cv1/act/Sigmoid_output_0: 3bf825ff
/model.4/cv1/act/Mul_output_0: 3ce5384c
/model.23/Slice_output_0: 3ddd3e47
/model.23/Reshape_10_output_0: 3f204a85
/model.23/cv4.2/cv4.2.1/act/Sigmoid_output_0: 3c00e6f8
/model.23/Transpose_1_output_0: 3e810a14
/model.23/Constant_74_output_0_output: 3c810a14
/model.23/Unsqueeze_12_output_0: 3e1d4449
/model.4/Split_output_0: 3cc064a1
output0: 3ff05c2b
/model.22/m.0/m/m.0/Add_output_0: 3cfe9b44
/model.23/Split_1_output_0: 3e05d7a1
/model.4/Split_output_1: 3c8f5960
/model.4/m.0/cv1/conv/Conv_output_0: 3cb09519
/model.4/m.0/cv1/act/Sigmoid_output_0: 3bf2df59
/model.4/m.0/cv1/act/Mul_output_0: 3cb08d03
/model.4/m.0/cv2/conv/Conv_output_0: 3cfe52bb
/model.4/m.0/cv2/act/Sigmoid_output_0: 3bff9946
/model.4/m.0/cv2/act/Mul_output_0: 3d00f8ea
/model.4/m.0/Add_output_0: 3d245ee3
/model.4/Concat_output_0: 3d0e9f50
/model.4/cv2/conv/Conv_output_0: 3dc3994a
/model.4/cv2/act/Sigmoid_output_0: 3bfdb118
/model.4/cv2/act/Mul_output_0: 3c677ae0
/model.5/conv/Conv_output_0: 3d5989fc
/model.5/act/Sigmoid_output_0: 3c00ca8f
/model.5/act/Mul_output_0: 3cc14f24
/model.6/cv1/conv/Conv_output_0: 3d85b3ef
/model.6/cv1/act/Sigmoid_output_0: 3bfdab0e
/model.6/cv1/act/Mul_output_0: 3cd2a0dd
/model.22/Concat_output_0: 3cc0b8ff
/model.22/m.0/cv3/act/Sigmoid_output_0: 3c023c4a
/model.22/cv1/act/Mul_output_0: 3c900dce
/model.22/m.0/Concat_output_0: 3d662575
/model.23/cv3.1/cv3.1.0/cv3.1.0.1/act/Sigmoid_output_0: 3bfc6d57
/model.23/Squeeze_1_output_0_output: 3e010a14
/model.6/Split_output_0: 3ce7d8c9
/model.23/cv4.2/cv4.2.0/act/Mul_output_0: 3cb1b2bf
/model.23/cv3.1/cv3.1.1/cv3.1.1.1/act/Sigmoid_output_0: 3c09f355
/model.22/m.0/m/m.1/Add_output_0: 3d8410bc
/model.6/Split_output_1: 3c9950d5
/model.6/m.0/cv1/conv/Conv_output_0: 3d0e2b9c
/model.6/m.0/cv2/conv/Conv_output_0: 3d74440b
/model.6/m.0/cv1/act/Sigmoid_output_0: 3bfccaab
/model.6/m.0/cv2/act/Sigmoid_output_0: 3c067d0c
/model.6/m.0/cv1/act/Mul_output_0: 3cc0f03a
/model.6/m.0/cv2/act/Mul_output_0: 3cc14904
/model.6/m.0/m/m.0/cv1/conv/Conv_output_0: 3d2071f8
/model.6/m.0/m/m.0/cv1/act/Sigmoid_output_0: 3bfaf15f
/model.6/m.0/m/m.0/cv1/act/Mul_output_0: 3c72baf7
/model.6/m.0/m/m.0/cv2/conv/Conv_output_0: 3ccc8811
/model.6/m.0/m/m.0/cv2/act/Sigmoid_output_0: 3bfc20a9
/model.6/m.0/m/m.0/cv2/act/Mul_output_0: 3c99e9fa
/model.6/m.0/m/m.0/Add_output_0: 3cf96507
/model.6/m.0/m/m.1/cv1/conv/Conv_output_0: 3d147cb2
/model.6/m.0/m/m.1/cv1/act/Sigmoid_output_0: 3bfc7bd4
/model.6/m.0/m/m.1/cv1/act/Mul_output_0: 3c495425
/model.6/m.0/m/m.1/cv2/conv/Conv_output_0: 3d4f3616
/model.6/m.0/m/m.1/cv2/act/Sigmoid_output_0: 3bffbf11
/model.6/m.0/m/m.1/cv2/act/Mul_output_0: 3d24827a
/model.6/m.0/m/m.1/Add_output_0: 3d8a8b9a
/model.6/m.0/Concat_output_0: 3d41fe77
/model.6/m.0/cv3/conv/Conv_output_0: 3d40cb3e
/model.6/m.0/cv3/act/Sigmoid_output_0: 3c02a251
/model.6/m.0/cv3/act/Mul_output_0: 3cb2b40e
/model.6/Concat_output_0: 3cd1a49d
/model.6/cv2/conv/Conv_output_0: 3d7bd7a6
/model.6/cv2/act/Sigmoid_output_0: 3c08ae3a
/model.6/cv2/act/Mul_output_0: 3cc17e16
/model.7/conv/Conv_output_0: 3d7e2aaf
/model.7/act/Sigmoid_output_0: 3c025fca
/model.7/act/Mul_output_0: 3cd254ff
/model.8/cv1/conv/Conv_output_0: 3db29829
/model.8/cv1/act/Sigmoid_output_0: 3c00dd3f
/model.8/cv1/act/Mul_output_0: 3d0feef9
/model.23/cv4.2/cv4.2.0/act/Sigmoid_output_0: 3bfcd3e1
/model.23/dfl/conv/Conv_output_0: 3ddf3abf
ONNXTRT_ShapeShuffle_225_output: 3c010a14
/model.23/Unsqueeze_15_output_0: 3f204a85
/model.22/m.0/m/m.1/cv2/act/Mul_output_0: 3d3ffc7f
/model.23/Concat_24_output_0: 3e1d4449
/model.8/Split_output_0: 3d2593aa
/model.23/Reshape_19_output_0: 3e1d4449
/model.23/Reshape_5_output_0: 3e1b6820
/model.23/cv3.2/cv3.2.0/cv3.2.0.0/act/Mul_output_0: 3d437252
/model.8/Split_output_1: 3d0051cc
/model.8/m.0/cv1/conv/Conv_output_0: 3d6cf9da
/model.8/m.0/cv2/conv/Conv_output_0: 3d781e0a
/model.8/m.0/cv1/act/Sigmoid_output_0: 3bf9b9ab
/model.8/m.0/cv2/act/Sigmoid_output_0: 3c00da24
/model.8/m.0/cv1/act/Mul_output_0: 3c721182
/model.8/m.0/cv2/act/Mul_output_0: 3d007cd3
/model.8/m.0/m/m.0/cv1/conv/Conv_output_0: 3d458ec9
/model.8/m.0/m/m.0/cv1/act/Sigmoid_output_0: 3c00145b
/model.8/m.0/m/m.0/cv1/act/Mul_output_0: 3cd26f1d
/model.8/m.0/m/m.0/cv2/conv/Conv_output_0: 3d4c6649
/model.8/m.0/m/m.0/cv2/act/Sigmoid_output_0: 3c00ac24
/model.8/m.0/m/m.0/cv2/act/Mul_output_0: 3cd13dff
/model.8/m.0/m/m.0/Add_output_0: 3d3f16fd
/model.8/m.0/m/m.1/cv1/conv/Conv_output_0: 3d1e3f17
/model.8/m.0/m/m.1/cv1/act/Sigmoid_output_0: 3bfa62f7
/model.8/m.0/m/m.1/cv1/act/Mul_output_0: 3c72b7f2
/model.8/m.0/m/m.1/cv2/conv/Conv_output_0: 3d92d5fe
/model.8/m.0/m/m.1/cv2/act/Sigmoid_output_0: 3c075637
/model.8/m.0/m/m.1/cv2/act/Mul_output_0: 3d917da8
/model.8/m.0/m/m.1/Add_output_0: 3dab9c2e
/model.8/m.0/Concat_output_0: 3d6838d8
/model.8/m.0/cv3/conv/Conv_output_0: 3d4b5114
/model.8/m.0/cv3/act/Sigmoid_output_0: 3c00d205
/model.8/m.0/cv3/act/Mul_output_0: 3cb1c1c3
/model.8/Concat_output_0: 3d00b0f8
/model.8/cv2/conv/Conv_output_0: 3d910836
/model.8/cv2/act/Sigmoid_output_0: 3c00c562
/model.8/cv2/act/Mul_output_0: 3d113e2d
/model.9/cv1/conv/Conv_output_0: 3d609233
/model.9/cv1/act/Sigmoid_output_0: 3c00a50f
/model.9/cv1/act/Mul_output_0: 3d42f980
/model.9/m/MaxPool_output_0: 3d42f980
/model.9/m_1/MaxPool_output_0: 3d42f980
/model.9/m_2/MaxPool_output_0: 3d42f980
/model.9/Concat_output_0: 3d596968
/model.9/cv2/conv/Conv_output_0: 3d8aef14
/model.9/cv2/act/Sigmoid_output_0: 3bfe6cf0
/model.9/cv2/act/Mul_output_0: 3ce64bc5
/model.10/cv1/conv/Conv_output_0: 3ddaeadd
/model.10/cv1/act/Sigmoid_output_0: 3c010e99
/model.10/cv1/act/Mul_output_0: 3d6acc09
/model.23/dfl/Transpose_output_0: 3e05d7a1
/model.23/Add_8_output_0: 3e810a14
/model.23/cv2.2/cv2.2.0/act/Mul_output_0: 3d105bf5
/model.23/cv3.2/cv3.2.0/cv3.2.0.1/conv/Conv_output_0: 3d319fbc
/model.23/Expand_4_output_0: 3e1d4449
/model.23/Concat_26_output_0: 3f204a85
/model.10/Split_output_0: 3d65195e
/model.23/Reshape_13_output_0: 3e9f4871
/model.23/dfl/Softmax_output: 3bcdb508
/model.22/m.0/cv2/act/Sigmoid_output_0: 3c001ea5
/model.10/Split_output_1: 3d6acc09
/model.22/m.0/cv1/conv/Conv_output_0: 3cf5b6b5
/model.22/Split_output_1: 3c8fa9a9
/model.10/m/m.0/attn/qkv/conv/Conv_output_0: 3da5fae8
/model.22/m.0/m/m.1/cv2/act/Sigmoid_output_0: 3c072f7d
/model.23/Unsqueeze_10_output_0: 3e9f4871
/model.23/Reshape_18_output_0: 3e1d4449
/model.22/m.0/m/m.1/cv2/conv/Conv_output_0: 3d9a91fb
/model.23/Add_6_output_0: 3e1d4449
ONNXTRT_Broadcast_247_output: 3e010a14
/model.23/Reshape_14_output_0: 3e9f4871
/model.23/Transpose_output_0: 3f204a85
/model.23/Concat_5_output_0: 3e1e0cb3
/model.22/m.0/cv3/act/Mul_output_0: 3ce60617
/model.23/cv3.1/cv3.1.1/cv3.1.1.0/act/Mul_output_0: 3d23fc70
/model.23/cv3.1/cv3.1.1/cv3.1.1.1/act/Mul_output_0: 3ce9dbd2
/model.23/cv3.2/cv3.2.0/cv3.2.0.1/act/Mul_output_0: 3cc03a47
/model.23/Unsqueeze_6_output_0: 3f204a85
/model.23/Add_5_output_0: 3e010a14
/model.23/cv4.2/cv4.2.2/Conv_output_0: 3c9d992f
/model.10/m/m.0/attn/Reshape_output_0: 3da5fae8
/model.23/cv2.2/cv2.2.1/conv/Conv_output_0: 3e2f328c
ONNXTRT_ShapeShuffle_311_output: 3c010a14
/model.23/cv2.2/cv2.2.0/act/Sigmoid_output_0: 3c02ed18
/model.23/ConstantOfShape_1_output_0: 0
/model.23/Concat_27_output_0: 3e810a14
/model.23/cv3.2/cv3.2.0/cv3.2.0.1/act/Sigmoid_output_0: 3c0098b6
/model.10/m/m.0/attn/Split_output_0: 3d2f75cb
/model.23/Sigmoid_output_0: 3919d06b
/model.23/Concat_19_output_0: 3e9f4871
/model.23/cv2.1/cv2.1.1/act/Mul_output_0: 3e13097b
/model.10/m/m.0/attn/Split_output_1: 3d9c1523
ONNXTRT_ShapeShuffle_242_output: 0
/model.23/cv4.1/cv4.1.1/conv/Conv_output_0: 3d68418d
/model.23/Add_4_output_0: 3e9f4871
/model.10/m/m.0/attn/Split_output_2: 3dbb970f
/model.10/m/m.0/attn/Transpose_output_0: 3d2f75cb
/model.10/m/m.0/attn/Reshape_2_output_0: 3dbb970f
/model.10/m/m.0/attn/MatMul_output_0: 3f884371
/model.10/m/m.0/attn/pe/conv/Conv_output_0: 3d8adb99
/model.10/m/m.0/attn/Constant_6_output_0_output: 3ab67d3d
ONNXTRT_Broadcast_output: 3ab67d3d
/model.10/m/m.0/attn/Mul_1_output_0: 3e40b4a2
/model.10/m/m.0/attn/Softmax_output: 3a4694dd
/model.10/m/m.0/attn/Softmax_output_0: 3a4694dd
/model.23/Sub_output_0: 3f2c533a
/model.23/cv3.2/cv3.2.2/Conv_output_0: 3e2b66bd
/model.10/m/m.0/attn/Transpose_1_output_0: 3a4694dd
/model.10/m/m.0/attn/MatMul_1_output_0: 3db130e1
/model.10/m/m.0/attn/Reshape_1_output_0: 3db130e1
/model.10/m/m.0/attn/Add_output_0: 3d808f14
/model.10/m/m.0/attn/proj/conv/Conv_output_0: 3d2ecd34
/model.10/m/m.0/Add_output_0: 3d8f777c
/model.10/m/m.0/ffn/ffn.0/conv/Conv_output_0: 3d7b45c8
/model.10/m/m.0/ffn/ffn.0/act/Sigmoid_output_0: 3c00bd7a
/model.10/m/m.0/ffn/ffn.0/act/Mul_output_0: 3c80c6c8
/model.10/m/m.0/ffn/ffn.1/conv/Conv_output_0: 3d825b64
/model.10/m/m.0/Add_1_output_0: 3db033b5
/model.10/Concat_output_0: 3d8efa6d
/model.10/cv2/conv/Conv_output_0: 3e06f3b7
/model.10/cv2/act/Sigmoid_output_0: 3c0baced
/model.10/cv2/act/Mul_output_0: 3c5bc9ab
/model.11/Resize_output_0: 3c5bc9ab
/model.12/Concat_output_0: 3c9b07f7
/model.13/cv1/conv/Conv_output_0: 3d3924aa
/model.13/cv1/act/Sigmoid_output_0: 3c03c750
/model.13/cv1/act/Mul_output_0: 3c99cb25
ONNXTRT_Broadcast_237_output: 3b810a14
/model.22/m.0/m/m.1/cv1/conv/Conv_output_0: 3d268023
/model.23/Add_3_output_0: 3e9f4871
/model.23/cv2.1/cv2.1.1/conv/Conv_output_0: 3e8295a4
ONNXTRT_Broadcast_239_output: 3b810a14
ONNXTRT_ShapeShuffle_235_output: 3c010a14
/model.13/Split_output_0: 3cb177d5
/model.23/Range_3_output_0: 3e9d4449
/model.23/cv3.1/cv3.1.1/cv3.1.1.0/conv/Conv_output_0: 3d309934
/model.23/ConstantOfShape_2_output_0: 0
/model.13/Split_output_1: 3c725dff
/model.13/m.0/cv1/conv/Conv_output_0: 3d13ac25
/model.13/m.0/cv1/act/Sigmoid_output_0: 3bff0b52
/model.13/m.0/cv1/act/Mul_output_0: 3cb13397
/model.13/m.0/cv2/conv/Conv_output_0: 3d511938
/model.13/m.0/cv2/act/Sigmoid_output_0: 3bfdb365
/model.13/m.0/cv2/act/Mul_output_0: 3ce6fa02
/model.13/m.0/Add_output_0: 3cf1f8f5
/model.13/Concat_output_0: 3cd19430
/model.13/cv2/conv/Conv_output_0: 3d267468
/model.13/cv2/act/Sigmoid_output_0: 3be97c8d
/model.13/cv2/act/Mul_output_0: 3c5b46a5
/model.14/Resize_output_0: 3c5b46a5
/model.15/Concat_output_0: 3c73ac80
/model.16/cv1/conv/Conv_output_0: 3d33dfd0
/model.16/cv1/act/Sigmoid_output_0: 3bfcbdf7
/model.16/cv1/act/Mul_output_0: 3ce5d714
/model.23/Expand_3_output_0: 3e9f4871
/model.23/Reshape_20_output_0: 3e1d4449
/model.23/Concat_28_output_0: 3f2541fe
ONNXTRT_Broadcast_423_output: 3c810a14
/model.23/cv3.2/cv3.2.1/cv3.2.1.1/conv/Conv_output_0: 3d09b7bd
/model.23/cv3.2/cv3.2.0/cv3.2.0.0/act/Sigmoid_output_0: 3c0526a2
/model.16/Split_output_0: 3ce615b0
/model.23/Add_11_output_0: 3fa541fe
/model.22/cv2/act/Mul_output_0: 3cc105f8
/model.23/Unsqueeze_13_output_0: 3e1d4449
/model.16/Split_output_1: 3c243c80
/model.16/m.0/cv1/conv/Conv_output_0: 3ce093c2
/model.16/m.0/cv1/act/Sigmoid_output_0: 3bf8ec82
/model.16/m.0/cv1/act/Mul_output_0: 3c9a8b32
/model.16/m.0/cv2/conv/Conv_output_0: 3d173722
/model.16/m.0/cv2/act/Sigmoid_output_0: 3bfc2c2a
/model.16/m.0/cv2/act/Mul_output_0: 3ce63db8
/model.16/m.0/Add_output_0: 3d002f7f
/model.16/Concat_output_0: 3ce698a9
/model.16/cv2/conv/Conv_output_0: 3d0c6cea
/model.16/cv2/act/Sigmoid_output_0: 3bfbec54
/model.16/cv2/act/Mul_output_0: 3c803588
/model.17/conv/Conv_output_0: 3d1e8349
/model.23/proto/cv1/conv/Conv_output_0: 3d02a0ed
/model.23/cv4.0/cv4.0.0/conv/Conv_output_0: 3d0df671
/model.23/cv2.0/cv2.0.0/conv/Conv_output_0: 3d617d5e
/model.23/cv3.0/cv3.0.0/cv3.0.0.0/conv/Conv_output_0: 3ce29309
/model.17/act/Sigmoid_output_0: 3bfea1a8
/model.23/proto/cv1/act/Sigmoid_output_0: 3c148207
/model.23/cv4.0/cv4.0.0/act/Sigmoid_output_0: 3bfc09a3
/model.23/cv2.0/cv2.0.0/act/Sigmoid_output_0: 3c003db3
/model.23/cv3.0/cv3.0.0/cv3.0.0.0/act/Sigmoid_output_0: 3bfbc102
/model.17/act/Mul_output_0: 3c73fd8b
/model.23/proto/cv1/act/Mul_output_0: 3c8094c1
/model.23/cv4.0/cv4.0.0/act/Mul_output_0: 3cb0daff
/model.23/cv2.0/cv2.0.0/act/Mul_output_0: 3c73fa93
/model.23/cv3.0/cv3.0.0/cv3.0.0.0/act/Mul_output_0: 3cbfc666
/model.18/Concat_output_0: 3c73b5b4
/model.23/proto/upsample/ConvTranspose_output_0: 3bb11ccc
/model.23/cv4.0/cv4.0.1/conv/Conv_output_0: 3d685ee9
/model.23/cv2.0/cv2.0.1/conv/Conv_output_0: 3e858504
/model.23/cv3.0/cv3.0.0/cv3.0.0.1/conv/Conv_output_0: 3d272b71
/model.19/cv1/conv/Conv_output_0: 3d2d895e
/model.23/proto/cv2/conv/Conv_output_0: 3d20c25c
/model.23/cv4.0/cv4.0.1/act/Sigmoid_output_0: 3c0a9603
/model.23/cv2.0/cv2.0.1/act/Sigmoid_output_0: 3c010a14
/model.23/cv3.0/cv3.0.0/cv3.0.0.1/act/Sigmoid_output_0: 3c00a1e3
/model.19/cv1/act/Sigmoid_output_0: 3bfce211
/model.23/proto/cv2/act/Sigmoid_output_0: 3bedbe13
/model.23/cv4.0/cv4.0.1/act/Mul_output_0: 3d00cc38
/model.23/cv2.0/cv2.0.1/act/Mul_output_0: 3e18c3a2
/model.23/cv3.0/cv3.0.0/cv3.0.0.1/act/Mul_output_0: 3cd12db6
/model.19/cv1/act/Mul_output_0: 3c916ebf
/model.23/proto/cv2/act/Mul_output_0: 3b107386
/model.23/cv4.0/cv4.0.2/Conv_output_0: 3c9f6633
/model.23/cv2.0/cv2.0.2/Conv_output_0: 3dff44a4
/model.23/cv3.0/cv3.0.1/cv3.0.1.0/conv/Conv_output_0: 3d8985bd
/model.23/cv2.2/cv2.2.1/act/Sigmoid_output_0: 3c010a14
/model.23/Range_5_output_0: 3e193bf8
ONNXTRT_Broadcast_430_output: 3e810a14
/model.23/cv3.1/cv3.1.0/cv3.1.0.1/conv/Conv_output_0: 3d14e79d
/model.23/cv3.2/cv3.2.1/cv3.2.1.0/act/Sigmoid_output_0: 3c0d5466
ONNXTRT_Broadcast_315_output: 3b810a14
/model.19/Split_output_0: 3cb2e493
(Unnamed Layer* 536) [Constant]_output: 0
/model.23/Expand_5_output_0: 3e1d4449
/model.23/Concat_10_output_0: 3e35c931
/model.19/Split_output_1: 3c3fc758
/model.23/proto/cv3/conv/Conv_output_0: 3d8b4a39
/model.23/cv3.0/cv3.0.1/cv3.0.1.0/act/Sigmoid_output_0: 3c04899a
/model.19/m.0/cv1/conv/Conv_output_0: 3d44ad12
/model.23/proto/cv3/act/Sigmoid_output_0: 3c006c91
/model.23/cv3.0/cv3.0.1/cv3.0.1.0/act/Mul_output_0: 3d667460
/model.19/m.0/cv1/act/Sigmoid_output_0: 3bfc6342
output1: 3ce668bd
/model.23/cv3.0/cv3.0.1/cv3.0.1.1/conv/Conv_output_0: 3d3f0bfb
/model.19/m.0/cv1/act/Mul_output_0: 3c8fd7ed
/model.22/m.0/m/m.0/cv2/act/Mul_output_0: 3cc107a0
/model.22/cv2/act/Sigmoid_output_0: 3c00c216
/model.23/cv3.0/cv3.0.1/cv3.0.1.1/act/Sigmoid_output_0: 3c006be1
/model.19/m.0/cv2/conv/Conv_output_0: 3d389860
/model.23/dfl/Reshape_1_output_0: 3ddf3abf
/model.23/cv3.0/cv3.0.1/cv3.0.1.1/act/Mul_output_0: 3d111b48
/model.19/m.0/cv2/act/Sigmoid_output_0: 3bfc70c2
/model.23/Concat_6_output_0: 3e1b6820
/model.23/cv3.0/cv3.0.2/Conv_output_0: 3e384e1a
/model.19/m.0/cv2/act/Mul_output_0: 3ce795ef
ONNXTRT_ShapeShuffle_318_output: 0
/model.21/Concat_output_0: 3c905d90
/model.22/m.0/m/m.0/cv2/act/Sigmoid_output_0: 3c04b6ab
/model.23/Concat_4_output_0: 3e35c931
/model.19/m.0/Add_output_0: 3d30d9be
/model.23/Reshape_output_0: 3c9f6633
/model.23/Reshape_4_output_0: 3e1e0cb3
/model.22/m.0/m/m.0/cv2/conv/Conv_output_0: 3d1adabf
/model.19/Concat_output_0: 3cd29b22
/model.22/m.0/cv2/act/Mul_output_0: 3cd32c57
/model.23/cv3.1/cv3.1.2/Conv_output_0: 3e238f0d
/model.22/m.0/m/m.0/cv1/act/Sigmoid_output_0: 3bf8a876
/model.19/cv2/conv/Conv_output_0: 3d4e09cd
/model.22/m.0/m/m.0/cv1/act/Mul_output_0: 3ca50c21
/model.23/cv3.2/cv3.2.1/cv3.2.1.0/act/Mul_output_0: 3d245edd
/model.22/m.0/cv2/conv/Conv_output_0: 3d45a4d1
/model.22/m.0/m/m.0/cv1/conv/Conv_output_0: 3d53082e
/model.19/cv2/act/Sigmoid_output_0: 3bfbd26e
/model.23/Unsqueeze_7_output_0: 3f204a85
/model.23/cv2.2/cv2.2.2/Conv_output_0: 3decb537
/model.23/Constant_21_output_0_output: 0
/model.23/Constant_22_output_0_output: 3c010a14
/model.23/Reshape_1_output_0: 3ccf14a6
/model.23/Sub_1_output_0: 3e5ea132
/model.22/Split_output_0: 3ca45862
/model.23/Div_1_output_0: 3f2541fe
/model.23/Concat_3_output_0: 3cba55ff
/model.23/cv3.2/cv3.2.1/cv3.2.1.1/act/Sigmoid_output_0: 3c0ae130
/model.22/m.0/cv3/conv/Conv_output_0: 3d83dd98
/model.23/Range_output_0: 3f1f4871
ONNXTRT_ShapeShuffle_148_output: 3c010a14
/model.23/Reshape_15_output_0: 3e9f4871
/model.23/dfl/Softmax_output_0: 3bcdb508
/model.22/m.0/cv1/act/Sigmoid_output_0: 3bf2e078
/model.23/cv3.1/cv3.1.1/cv3.1.1.1/conv/Conv_output_0: 3d25fdad
/model.23/cv3.1/cv3.1.1/cv3.1.1.0/act/Sigmoid_output_0: 3c00bffe
/model.22/cv1/conv/Conv_output_0: 3d8b31ff
/model.23/cv3.2/cv3.2.1/cv3.2.1.1/act/Mul_output_0: 3cffe292
/model.23/Range_1_output_0: 3f1f4871
ONNXTRT_ShapeShuffle_158_output: 3c010a14
/model.22/m.0/cv1/act/Mul_output_0: 3c14e174
/model.19/cv2/act/Mul_output_0: 3c8853f7
/model.23/Reshape_3_output_0: 3e35c931
/model.23/Constant_23_output_0_output: 3b810a14
ONNXTRT_Broadcast_161_output: 3b810a14
/model.23/Add_output_0: 3f204a85
ONNXTRT_Broadcast_163_output: 3b810a14
/model.23/Add_1_output_0: 3f204a85
/model.23/cv2.2/cv2.2.1/act/Mul_output_0: 3e10722b
/model.22/cv2/conv/Conv_output_0: 3d64ded6
/model.20/conv/Conv_output_0: 3d4fec1c
/model.23/cv4.1/cv4.1.0/conv/Conv_output_0: 3d0c0bf3
/model.23/cv2.1/cv2.1.0/conv/Conv_output_0: 3d5b0f16
/model.23/cv3.1/cv3.1.0/cv3.1.0.0/conv/Conv_output_0: 3d3377e3
(Unnamed Layer* 407) [Constant]_output: 0
ONNXTRT_ShapeShuffle_166_output: 0
/model.23/ConstantOfShape_output_0: 0
/model.23/cv3.1/cv3.1.0/cv3.1.0.1/act/Mul_output_0: 3cc08c64
/model.22/m.0/m/m.1/cv1/act/Sigmoid_output_0: 3bf82e2f
/model.23/cv4.2/cv4.2.1/act/Mul_output_0: 3cfffc04
/model.23/Reshape_2_output_0: 3c9d992f
/model.23/Reshape_8_output_0: 3f204a85
/model.23/Reshape_9_output_0: 3f204a85
/model.20/act/Sigmoid_output_0: 3c0064e8
/model.23/cv4.1/cv4.1.0/act/Sigmoid_output_0: 3bfd50fa
/model.23/cv2.1/cv2.1.0/act/Sigmoid_output_0: 3c00ac79
/model.23/cv3.1/cv3.1.0/cv3.1.0.0/act/Sigmoid_output_0: 3c0a7d07
/model.23/Squeeze_output_0_output: 3d810a14
ONNXTRT_Broadcast_171_output: 3d810a14
/model.23/Add_2_output_0: 3d810a14
/model.23/cv4.1/cv4.1.1/act/Mul_output_0: 3d10e34d
/model.20/act/Mul_output_0: 3c905d90
/model.23/cv4.1/cv4.1.0/act/Mul_output_0: 3c8036c7
/model.23/cv2.1/cv2.1.0/act/Mul_output_0: 3cd20e5f
/model.23/cv3.1/cv3.1.0/cv3.1.0.0/act/Mul_output_0: 3d120c00
/model.23/Concat_14_output_0: 3f204a85
/model.23/Squeeze_2_output_0_output: 3e810a14
ONNXTRT_ShapeShuffle_301_output: 3c010a14
/model.23/Add_7_output_0: 3e1d4449
/model.23/cv4.2/cv4.2.1/conv/Conv_output_0: 3d82cccd
/model.22/cv1/act/Sigmoid_output_0: 3c0047e7
/model.23/cv2.1/cv2.1.1/act/Sigmoid_output_0: 3c010a14
/model.23/Unsqueeze_9_output_0: 3e9f4871
/model.23/cv2.1/cv2.1.2/Conv_output_0: 3ddec8ce
/model.23/cv4.1/cv4.1.2/Conv_output_0: 3ccf14a6
/model.23/Expand_output_0: 3f204a85
/model.23/Range_4_output_0: 3e193bf8
(Unnamed Layer* 667) [Constant]_output: 0
ONNXTRT_Broadcast_313_output: 3b810a14
/model.23/Range_2_output_0: 3e9d4449
/model.23/Slice_1_output_0: 3ddf3abf
/model.23/Expand_2_output_0: 3e9f4871
/model.23/cv4.1/cv4.1.1/act/Sigmoid_output_0: 3c00b2b7
/model.23/Add_10_output_0: 3f21a372
/model.23/cv2.2/cv2.2.0/conv/Conv_output_0: 3d5fdce4
